// Generated by   : ImageConverter 565 Online
// Generated from : weight.png
// Time generated : Wed, 16 Jun 21 10:01:44 +0200  (Server timezone: CET)
// Image Size     : 32x32 pixels
// Memory usage   : 2048 bytes


#if defined(__AVR__)
    #include <avr/pgmspace.h>
#elif defined(__PIC32MX__)
    #define PROGMEM
#elif defined(__arm__)
    #define PROGMEM
#endif

const unsigned short weight[1024] PROGMEM={
0x0000, 0x0000, 0x0000, 0x0000, 0x0000, 0x0000, 0x0000, 0x0000, 0x0000, 0x0000, 0x0000, 0x0000, 0x0000, 0x0000, 0x0000, 0x0000,   // 0x0010 (16) pixels
0x0000, 0x0000, 0x0000, 0x0000, 0x0000, 0x0000, 0x0000, 0x0000, 0x0000, 0x0000, 0x0000, 0x0000, 0x0000, 0x0000, 0x0000, 0x0000,   // 0x0020 (32) pixels
0x0000, 0x0000, 0x0000, 0x0000, 0x0000, 0x0000, 0x0000, 0x0000, 0x0000, 0x0000, 0x0000, 0x0000, 0x0000, 0x0000, 0x0041, 0x0168,   // 0x0030 (48) pixels
0x00C4, 0x0000, 0x0000, 0x0000, 0x0000, 0x0000, 0x0000, 0x0000, 0x0000, 0x0000, 0x0000, 0x0000, 0x0000, 0x0000, 0x0000, 0x0000,   // 0x0040 (64) pixels
0x0000, 0x0000, 0x0000, 0x0000, 0x0000, 0x0000, 0x0000, 0x0000, 0x0000, 0x0000, 0x0000, 0x0000, 0x0021, 0x04DB, 0x05BF, 0x0437,   // 0x0050 (80) pixels
0x055E, 0x05FF, 0x0147, 0x0000, 0x0000, 0x0000, 0x0000, 0x0000, 0x0000, 0x0000, 0x0000, 0x0000, 0x0000, 0x0000, 0x0000, 0x0000,   // 0x0060 (96) pixels
0x0000, 0x0000, 0x0000, 0x0000, 0x0000, 0x0000, 0x0000, 0x0000, 0x0000, 0x0000, 0x0000, 0x0000, 0x05FF, 0x01CA, 0x0000, 0x0000,   // 0x0070 (112) pixels
0x0000, 0x00E5, 0x061F, 0x01CA, 0x0000, 0x0000, 0x0000, 0x0000, 0x0000, 0x0000, 0x0000, 0x0000, 0x0000, 0x0000, 0x0000, 0x0000,   // 0x0080 (128) pixels
0x0000, 0x0000, 0x0000, 0x0000, 0x0000, 0x0000, 0x0000, 0x0000, 0x0000, 0x0000, 0x0000, 0x04FC, 0x024C, 0x0000, 0x0000, 0x0000,   // 0x0090 (144) pixels
0x0000, 0x0000, 0x00E5, 0x05FF, 0x0000, 0x0000, 0x0000, 0x0000, 0x0000, 0x0000, 0x0000, 0x0000, 0x0000, 0x0000, 0x0000, 0x0000,   // 0x00A0 (160) pixels
0x0000, 0x0000, 0x0000, 0x0000, 0x0000, 0x0000, 0x0000, 0x0000, 0x0000, 0x0000, 0x0062, 0x065F, 0x0000, 0x0000, 0x0000, 0x0000,   // 0x00B0 (176) pixels
0x0000, 0x0000, 0x0000, 0x055E, 0x01A9, 0x0000, 0x0000, 0x0000, 0x0000, 0x0000, 0x0000, 0x0000, 0x0000, 0x0000, 0x0000, 0x0000,   // 0x00C0 (192) pixels
0x0000, 0x0000, 0x0000, 0x0000, 0x0000, 0x0000, 0x0000, 0x0000, 0x0000, 0x0000, 0x00A3, 0x05BF, 0x0000, 0x0000, 0x0000, 0x0000,   // 0x00D0 (208) pixels
0x0000, 0x0000, 0x0000, 0x0459, 0x028E, 0x0000, 0x0000, 0x0000, 0x0000, 0x0000, 0x0000, 0x0000, 0x0000, 0x0000, 0x0000, 0x0000,   // 0x00E0 (224) pixels
0x0000, 0x0000, 0x0000, 0x0000, 0x0000, 0x0000, 0x0000, 0x0000, 0x0000, 0x0000, 0x0000, 0x065F, 0x0000, 0x0000, 0x0000, 0x0000,   // 0x00F0 (240) pixels
0x0000, 0x0000, 0x0000, 0x057F, 0x0147, 0x0000, 0x0000, 0x0000, 0x0000, 0x0000, 0x0000, 0x0000, 0x0000, 0x0000, 0x0000, 0x0000,   // 0x0100 (256) pixels
0x0000, 0x0000, 0x0000, 0x0000, 0x0000, 0x0000, 0x0000, 0x0000, 0x0000, 0x0000, 0x0000, 0x0394, 0x0373, 0x0000, 0x0000, 0x0000,   // 0x0110 (272) pixels
0x0000, 0x0000, 0x01EB, 0x055E, 0x0000, 0x0000, 0x0000, 0x0000, 0x0000, 0x0000, 0x0000, 0x0000, 0x0000, 0x0000, 0x0000, 0x0000,   // 0x0120 (288) pixels
0x0000, 0x0000, 0x0000, 0x0020, 0x0437, 0x059F, 0x057F, 0x057F, 0x057F, 0x057F, 0x057F, 0x053D, 0x059F, 0x0332, 0x0000, 0x0000,   // 0x0130 (304) pixels
0x0000, 0x020B, 0x059F, 0x053D, 0x057E, 0x057F, 0x057F, 0x057F, 0x057F, 0x057F, 0x059F, 0x04BA, 0x0000, 0x0000, 0x0000, 0x0000,   // 0x0140 (320) pixels
0x0000, 0x0000, 0x0000, 0x0331, 0x059F, 0x051D, 0x051D, 0x051D, 0x051D, 0x051D, 0x051D, 0x051D, 0x051D, 0x051D, 0x051D, 0x051D,   // 0x0150 (336) pixels
0x051D, 0x051D, 0x051D, 0x051D, 0x051D, 0x051D, 0x051D, 0x051D, 0x051D, 0x051D, 0x051D, 0x057F, 0x0332, 0x0000, 0x0000, 0x0000,   // 0x0160 (352) pixels
0x0000, 0x0000, 0x0000, 0x049A, 0x053D, 0x051D, 0x051D, 0x051D, 0x051E, 0xB7FF, 0xFF1E, 0x051D, 0x051D, 0x051D, 0x051D, 0x051D,   // 0x0170 (368) pixels
0x051D, 0x051D, 0x051D, 0x051D, 0x051D, 0x051D, 0x051D, 0x051D, 0x051D, 0x051D, 0x051D, 0x053D, 0x0479, 0x0000, 0x0000, 0x0000,   // 0x0180 (384) pixels
0x0000, 0x0000, 0x0000, 0x059F, 0x051D, 0x051D, 0x051D, 0x051D, 0x059E, 0xDFFF, 0xFF9E, 0x3D1D, 0x051D, 0x051D, 0x051D, 0x051D,   // 0x0190 (400) pixels
0x051D, 0x051D, 0x051D, 0x051D, 0x051D, 0x051D, 0x051D, 0x051D, 0x051D, 0x051D, 0x051D, 0x051D, 0x059F, 0x0000, 0x0000, 0x0000,   // 0x01A0 (416) pixels
0x0000, 0x0000, 0x0905, 0x059F, 0x051D, 0x051D, 0x051D, 0x051D, 0x051E, 0xB7FF, 0xFF9E, 0x3D1D, 0x051D, 0x051D, 0x051D, 0x051D,   // 0x01B0 (432) pixels
0x051D, 0x051D, 0x051D, 0x051D, 0x051D, 0x051D, 0x051D, 0x051D, 0x051D, 0x051D, 0x051D, 0x051D, 0x059F, 0x0083, 0x0000, 0x0000,   // 0x01C0 (448) pixels
0x0000, 0x0000, 0x020B, 0x057F, 0x051D, 0x051D, 0x051D, 0x051D, 0x059E, 0xDFFF, 0xFFFE, 0x651D, 0x051D, 0x051D, 0x051D, 0x051D,   // 0x01D0 (464) pixels
0x051D, 0x051D, 0x051D, 0x051D, 0x051D, 0x051D, 0x051D, 0x051D, 0x051D, 0x051D, 0x051D, 0x051D, 0x057F, 0x01CA, 0x0000, 0x0000,   // 0x01E0 (480) pixels
0x0000, 0x0000, 0x0332, 0x055E, 0x051D, 0x051D, 0x051D, 0x051D, 0x059E, 0xDFFF, 0xFF9E, 0x3D1D, 0x051D, 0x061E, 0xDFFF, 0xDE9D,   // 0x01F0 (496) pixels
0x051D, 0x051D, 0x671F, 0xDFFF, 0xFFFF, 0xFFFF, 0xB69D, 0x051D, 0x051D, 0x051D, 0x051D, 0x051D, 0x055E, 0x0311, 0x0000, 0x0000,   // 0x0200 (512) pixels
0x0000, 0x0000, 0x04BB, 0x053D, 0x051D, 0x051D, 0x051D, 0x051D, 0x059E, 0xDFFF, 0xFF9E, 0x3D1D, 0x061E, 0xDFFF, 0xFFFF, 0xB61D,   // 0x0210 (528) pixels
0x051D, 0x979F, 0xFFFF, 0xFFFF, 0xFFFF, 0xFFFF, 0xFFFF, 0xDE9D, 0x051D, 0x051D, 0x051D, 0x051D, 0x053D, 0x0437, 0x0000, 0x0000,   // 0x0220 (544) pixels
0x0000, 0x0000, 0x059F, 0x051D, 0x051D, 0x051D, 0x051D, 0x051D, 0x059E, 0xDFFF, 0xFF9E, 0x661E, 0xFFFF, 0xFFFF, 0xB61D, 0x051D,   // 0x0230 (560) pixels
0x3E9F, 0xFFFF, 0xFF9E, 0x659D, 0x051D, 0x3E9F, 0xFFFF, 0xDE9D, 0x051D, 0x051D, 0x051D, 0x051D, 0x051D, 0x057F, 0x0000, 0x0000,   // 0x0240 (576) pixels
0x0000, 0x0083, 0x059F, 0x051D, 0x051D, 0x051D, 0x051D, 0x051D, 0x059E, 0xDFFF, 0xFFFF, 0xFFFF, 0xFFFF, 0xDE9D, 0x051D, 0x051D,   // 0x0250 (592) pixels
0x979F, 0xFFFF, 0xB61D, 0x051D, 0x051D, 0x671F, 0xFFFF, 0xB61D, 0x051D, 0x051D, 0x051D, 0x051D, 0x051D, 0x05BF, 0x0041, 0x0000,   // 0x0260 (608) pixels
0x0000, 0x022B, 0x057F, 0x051D, 0x051D, 0x051D, 0x051D, 0x051D, 0x059E, 0xDFFF, 0xFFFF, 0xDF1E, 0xDFFF, 0xFFFF, 0x959D, 0x051D,   // 0x0270 (624) pixels
0x979F, 0xFFFF, 0x959D, 0x051D, 0x051D, 0x979F, 0xFFFF, 0x959D, 0x051D, 0x051D, 0x051D, 0x051D, 0x051D, 0x057F, 0x0188, 0x0000,   // 0x0280 (640) pixels
0x0000, 0x0352, 0x055E, 0x051D, 0x051D, 0x051D, 0x051D, 0x051D, 0x061E, 0xFFFF, 0xFF9E, 0x3D1D, 0x061E, 0xFFFF, 0xFFFE, 0x651D,   // 0x0290 (656) pixels
0x979F, 0xFFFF, 0xB61D, 0x051D, 0x669F, 0xFFFF, 0xFFFF, 0x959D, 0x051D, 0x051D, 0x051D, 0x051D, 0x051D, 0x055E, 0x02AF, 0x0000,   // 0x02A0 (672) pixels
0x0000, 0x04BA, 0x053D, 0x051D, 0x051D, 0x051D, 0x051D, 0x051D, 0x061E, 0xFFFF, 0xFF9E, 0x3D1D, 0x051D, 0x3E9F, 0xFFFF, 0xFF9E,   // 0x02B0 (688) pixels
0x3E1E, 0xFFFF, 0xFFFF, 0xFFFF, 0xFFFF, 0xFFFF, 0xFFFE, 0x651D, 0x051D, 0x051D, 0x051D, 0x051D, 0x051D, 0x053D, 0x03F6, 0x0000,   // 0x02C0 (704) pixels
0x0000, 0x055E, 0x051D, 0x051D, 0x051D, 0x051D, 0x051D, 0x051D, 0x059E, 0xDFFF, 0xDF1E, 0x051D, 0x051D, 0x051E, 0xB79F, 0xFF9E,   // 0x02D0 (720) pixels
0x3D1D, 0x3E9E, 0xDFFF, 0xFFFF, 0xDF1E, 0xDFFF, 0xFFFE, 0x651D, 0x051D, 0x051D, 0x051D, 0x051D, 0x051D, 0x051D, 0x053D, 0x0000,   // 0x02E0 (736) pixels
0x0041, 0x05BF, 0x051D, 0x051D, 0x051D, 0x051D, 0x051D, 0x051D, 0x051D, 0x051D, 0x051D, 0x051D, 0x051D, 0x051D, 0x051D, 0x051D,   // 0x02F0 (752) pixels
0x051D, 0x051D, 0x051D, 0x051D, 0x059E, 0xDFFF, 0xFF9E, 0x3D1D, 0x051D, 0x051D, 0x051D, 0x051D, 0x051D, 0x051D, 0x05BF, 0x0000,   // 0x0300 (768) pixels
0x00E5, 0x059F, 0x051D, 0x051D, 0x051D, 0x051D, 0x051D, 0x051D, 0x051D, 0x051D, 0x051D, 0x051D, 0x051D, 0x051D, 0x051D, 0x051D,   // 0x0310 (784) pixels
0x051D, 0x051D, 0x051D, 0x051D, 0x671F, 0xFFFF, 0xFF1E, 0x051D, 0x051D, 0x051D, 0x051D, 0x051D, 0x051D, 0x051D, 0x059F, 0x0105,   // 0x0320 (800) pixels
0x0188, 0x057F, 0x051D, 0x051D, 0x051D, 0x051D, 0x051D, 0x051D, 0x051D, 0x051D, 0x051D, 0x051D, 0x051D, 0x051D, 0x051D, 0x051D,   // 0x0330 (816) pixels
0x979F, 0xFFFF, 0xFFFF, 0xFFFF, 0xFFFF, 0xFFFF, 0xB61D, 0x051D, 0x051D, 0x051D, 0x051D, 0x051D, 0x051D, 0x051D, 0x057E, 0x022C,   // 0x0340 (832) pixels
0x02F0, 0x055E, 0x051D, 0x051D, 0x051D, 0x051D, 0x051D, 0x051D, 0x051D, 0x051D, 0x051D, 0x051D, 0x051D, 0x051D, 0x051D, 0x051D,   // 0x0350 (848) pixels
0x3E9E, 0xDFFF, 0xFFFF, 0xFFFF, 0xFF9E, 0x961D, 0x051D, 0x051D, 0x051D, 0x051D, 0x051D, 0x051D, 0x051D, 0x051D, 0x055E, 0x0373,   // 0x0360 (864) pixels
0x0394, 0x055E, 0x051D, 0x051D, 0x051D, 0x051D, 0x051D, 0x051D, 0x051D, 0x051D, 0x051D, 0x051D, 0x051D, 0x051D, 0x051D, 0x051D,   // 0x0370 (880) pixels
0x051D, 0x051D, 0x051D, 0x051D, 0x051D, 0x051D, 0x051D, 0x051D, 0x051D, 0x051D, 0x051D, 0x051D, 0x051D, 0x051D, 0x055E, 0x03B5,   // 0x0380 (896) pixels
0x00A3, 0x05BF, 0x05BF, 0x05BF, 0x05BF, 0x05BF, 0x05BF, 0x05BF, 0x05BF, 0x05BF, 0x05BF, 0x05BF, 0x05BF, 0x05BF, 0x05BF, 0x059F,   // 0x0390 (912) pixels
0x059F, 0x05BF, 0x05BF, 0x05BF, 0x05BF, 0x05BF, 0x05BF, 0x05BF, 0x05BF, 0x05BF, 0x05BF, 0x05BF, 0x05BF, 0x05DF, 0x04DB, 0x0020,   // 0x03A0 (928) pixels
0x0000, 0x0000, 0x0000, 0x0000, 0x0000, 0x0000, 0x0000, 0x0000, 0x0000, 0x0000, 0x0000, 0x0000, 0x0000, 0x0000, 0x0000, 0x0000,   // 0x03B0 (944) pixels
0x0000, 0x0000, 0x0000, 0x0000, 0x0000, 0x0000, 0x0000, 0x0000, 0x0000, 0x0000, 0x0000, 0x0000, 0x0000, 0x0000, 0x0000, 0x0000,   // 0x03C0 (960) pixels
0x0000, 0x0000, 0x0000, 0x0000, 0x0000, 0x0000, 0x0000, 0x0000, 0x0000, 0x0000, 0x0000, 0x0000, 0x0000, 0x0000, 0x0000, 0x0000,   // 0x03D0 (976) pixels
0x0000, 0x0000, 0x0000, 0x0000, 0x0000, 0x0000, 0x0000, 0x0000, 0x0000, 0x0000, 0x0000, 0x0000, 0x0000, 0x0000, 0x0000, 0x0000,   // 0x03E0 (992) pixels
0x0000, 0x0000, 0x0000, 0x0000, 0x0000, 0x0000, 0x0000, 0x0000, 0x0000, 0x0000, 0x0000, 0x0000, 0x0000, 0x0000, 0x0000, 0x0000,   // 0x03F0 (1008) pixels
0x0000, 0x0000, 0x0000, 0x0000, 0x0000, 0x0000, 0x0000, 0x0000, 0x0000, 0x0000, 0x0000, 0x0000, 0x0000, 0x0000, 0x0000, 0x0000,   // 0x0400 (1024) pixels
};
